/**
******************************************************************************
* @file    network_data.c
* @author  AST Embedded Analytics Research Platform
* @date    Wed Jul  7 23:59:17 2021
* @brief   AI Tool Automatic Code Generator for Embedded NN computing
******************************************************************************
* @attention
*
* Copyright (c) 2021 STMicroelectronics.
* All rights reserved.
*
* This software component is licensed by ST under Ultimate Liberty license
* SLA0044, the "License"; You may not use this file except in compliance with
* the License. You may obtain a copy of the License at:
*                             www.st.com/SLA0044
*
******************************************************************************
*/

#include "network_data.h"

ai_handle ai_network_data_weights_get(void)
{
  AI_ALIGNED(32)
  static const ai_u8 s_network_weights[820] = {
    0xa2, 0x1d, 0x00, 0xbf, 0x68, 0xe5, 0xc4, 0x3e, 0xb4, 0x8c,
    0x05, 0xbf, 0x2f, 0xc1, 0x9e, 0x3e, 0x0c, 0x38, 0x8f, 0x3c,
    0xfc, 0x8b, 0x56, 0xbc, 0x82, 0x87, 0x4d, 0x3e, 0x31, 0x11,
    0xc5, 0xbe, 0x80, 0xef, 0x09, 0x3f, 0x25, 0x86, 0xda, 0x3e,
    0xaa, 0x30, 0xc2, 0xbd, 0xb3, 0x2f, 0xe3, 0x3d, 0x26, 0xc2,
    0x56, 0x3e, 0x81, 0x77, 0x13, 0xbf, 0x20, 0xfa, 0x43, 0xbe,
    0x9f, 0x15, 0x9e, 0x3e, 0x89, 0x9c, 0x29, 0xbf, 0xb0, 0x9f,
    0xa7, 0xbd, 0x23, 0x15, 0x0b, 0xbe, 0x11, 0x9b, 0x81, 0xbe,
    0x00, 0xd2, 0x58, 0xbe, 0xc3, 0xf1, 0x98, 0xbe, 0x93, 0xa4,
    0xe1, 0xbe, 0xc2, 0x1b, 0x82, 0x3e, 0xb9, 0xb1, 0x34, 0xbe,
    0x0a, 0xfb, 0xb8, 0x3e, 0xae, 0x05, 0x58, 0xbe, 0xb9, 0xa9,
    0x3e, 0x3f, 0x29, 0x65, 0xfb, 0xbe, 0x50, 0x6d, 0x57, 0x3d,
    0x8b, 0x75, 0x61, 0xbe, 0x30, 0xda, 0xa3, 0xbd, 0x30, 0x1c,
    0x43, 0x3e, 0x80, 0x14, 0x41, 0xbf, 0xe2, 0x40, 0xec, 0x3e,
    0x46, 0x62, 0x7a, 0x3e, 0xe9, 0x80, 0xea, 0x3e, 0x50, 0xef,
    0x19, 0x3f, 0xd5, 0xed, 0xb7, 0x3e, 0x78, 0x2f, 0xa9, 0x3e,
    0x02, 0xab, 0x4f, 0xbc, 0x47, 0xab, 0xcc, 0x3e, 0x4d, 0x14,
    0x05, 0xbf, 0x9b, 0xd1, 0xb2, 0xbe, 0x9d, 0x8b, 0xd2, 0xbe,
    0x57, 0xac, 0x3d, 0xbf, 0xdd, 0xbc, 0x2c, 0x3d, 0x75, 0xc6,
    0x27, 0xbd, 0x23, 0x02, 0xf8, 0xbe, 0x2d, 0xae, 0x29, 0xbe,
    0x42, 0xdd, 0xc6, 0x3d, 0xba, 0x21, 0x4e, 0xbe, 0x9b, 0x30,
    0x49, 0xbe, 0xa6, 0xf9, 0x26, 0xbf, 0x4c, 0x02, 0xd5, 0x3d,
    0x23, 0xeb, 0xa1, 0xbe, 0x74, 0xfa, 0x38, 0xbf, 0x32, 0x92,
    0xc0, 0xbe, 0xcc, 0x16, 0xb1, 0xbd, 0xd5, 0xad, 0x98, 0xbd,
    0x94, 0x1a, 0x9f, 0x3e, 0x08, 0x10, 0x4d, 0x3f, 0xab, 0xae,
    0x0f, 0x3f, 0x49, 0x49, 0x1c, 0xbe, 0x95, 0xa3, 0xb2, 0xbe,
    0x7c, 0xf5, 0xa6, 0x3c, 0xb0, 0x3e, 0xdb, 0x3d, 0xda, 0xe6,
    0x71, 0x3c, 0xe2, 0x8b, 0x90, 0x3e, 0x5e, 0x5b, 0x93, 0xbd,
    0x9e, 0xcd, 0xec, 0xbe, 0xdd, 0x59, 0x8e, 0x3e, 0x8f, 0xa8,
    0xc9, 0xbb, 0x1d, 0x88, 0x3d, 0x3d, 0x0b, 0x3d, 0x8f, 0x3c,
    0xc7, 0xb7, 0x01, 0xbd, 0xe6, 0x4e, 0x2b, 0xbd, 0x4b, 0xf8,
    0x3a, 0xbd, 0x95, 0xbe, 0xc5, 0xbc, 0xf3, 0xc8, 0x6c, 0x3c,
    0x5d, 0xe4, 0x77, 0x3f, 0x0f, 0xf8, 0xfa, 0x3d, 0x58, 0x61,
    0x6e, 0x3b, 0xa2, 0xef, 0xe6, 0x3e, 0x54, 0x0a, 0xb6, 0x3e,
    0xc3, 0x21, 0xef, 0x3e, 0x78, 0xef, 0x93, 0x3f, 0xa5, 0xc1,
    0x37, 0x3e, 0x22, 0x61, 0x27, 0x3f, 0x92, 0x35, 0xa5, 0x3d,
    0x71, 0x47, 0x82, 0xbe, 0xb5, 0xb3, 0x5f, 0x3f, 0xc8, 0x1c,
    0x1b, 0x3f, 0xd3, 0x20, 0x22, 0x3e, 0xf7, 0x7a, 0x82, 0x3f,
    0xd3, 0x15, 0x93, 0xbe, 0x20, 0xba, 0x94, 0x3f, 0x8c, 0x2c,
    0x2d, 0x3f, 0x4d, 0x4b, 0x7a, 0x3d, 0xdf, 0xb8, 0x73, 0x3f,
    0x44, 0x9a, 0xe7, 0x3e, 0x74, 0x82, 0x72, 0x3e, 0x8a, 0xd9,
    0x58, 0x3f, 0xff, 0xdb, 0xaa, 0xbe, 0xec, 0x8b, 0x72, 0x3e,
    0x2d, 0x09, 0x02, 0xbf, 0xec, 0x9f, 0x40, 0xbe, 0x3e, 0xcd,
    0x10, 0xbf, 0xfe, 0xed, 0xc8, 0x3e, 0xbe, 0xc2, 0x48, 0xbf,
    0x45, 0x05, 0xa1, 0xbd, 0x5c, 0x8f, 0x9b, 0xbe, 0xdd, 0x85,
    0xc6, 0x3e, 0xe0, 0xe6, 0x5f, 0xbd, 0xbd, 0xc0, 0x84, 0xbf,
    0xde, 0xc8, 0x1b, 0xbf, 0xfb, 0xd4, 0xd5, 0x3e, 0xad, 0xf6,
    0x6d, 0xbe, 0xb8, 0x4b, 0xda, 0x3d, 0xd3, 0x18, 0x27, 0xbf,
    0x42, 0x82, 0x0a, 0x3e, 0x88, 0xb0, 0x5f, 0xbc, 0xa6, 0x3e,
    0x53, 0xbf, 0x17, 0xa3, 0x4a, 0xbf, 0x2b, 0xdf, 0x9c, 0x3e,
    0x6c, 0xb3, 0x78, 0xbf, 0x7e, 0x8b, 0xb5, 0x3e, 0x65, 0x01,
    0x38, 0xbf, 0x6e, 0x91, 0x99, 0xbe, 0xab, 0x83, 0x99, 0x3d,
    0x02, 0x3c, 0x6f, 0xbe, 0x43, 0x1f, 0x97, 0xbe, 0x25, 0x64,
    0x81, 0xbe, 0x6e, 0x48, 0x48, 0xbe, 0x45, 0xda, 0x8e, 0x3f,
    0x70, 0x9d, 0xa5, 0xbe, 0xf4, 0x04, 0x8f, 0xbe, 0xef, 0x68,
    0xe9, 0xbd, 0x88, 0xda, 0x35, 0xbd, 0x19, 0x8e, 0x51, 0x3f,
    0xa0, 0xeb, 0xcb, 0xbd, 0x17, 0x7f, 0x6d, 0x3f, 0x39, 0x51,
    0x15, 0x3f, 0xd7, 0x45, 0x44, 0x3f, 0x9a, 0x1c, 0x54, 0x3c,
    0xba, 0xfc, 0x10, 0x3f, 0x76, 0x27, 0x33, 0x3f, 0xab, 0xa3,
    0x44, 0x3f, 0xac, 0xd7, 0x2a, 0x3f, 0xf3, 0xf2, 0x7f, 0x3e,
    0x72, 0xb8, 0xad, 0x3f, 0xfd, 0xb1, 0x5f, 0x3f, 0x11, 0x56,
    0x2f, 0x3f, 0xfd, 0xdb, 0x25, 0x3f, 0x3f, 0xa4, 0xdb, 0xb8,
    0x8d, 0x38, 0x84, 0x3e, 0xb9, 0x23, 0x03, 0xbe, 0xb3, 0x5f,
    0x9d, 0x3e, 0xdc, 0x7b, 0xb7, 0x3c, 0xc3, 0x49, 0x72, 0x3f,
    0xca, 0xb4, 0xd2, 0xbd, 0x77, 0x42, 0x8b, 0x3e, 0x26, 0xcb,
    0xd8, 0xbf, 0x72, 0xf4, 0x7d, 0x3e, 0x11, 0x85, 0xe3, 0xbf,
    0xd2, 0x2c, 0x20, 0xbe, 0xa7, 0xb9, 0xa1, 0xbf, 0xf4, 0xd0,
    0x13, 0x3f, 0x28, 0xc0, 0xe2, 0xbf, 0xe9, 0x22, 0x69, 0xbd,
    0x0f, 0x76, 0x9f, 0x3f, 0xdd, 0x5a, 0x85, 0xbd, 0xb1, 0x63,
    0x80, 0x3f, 0xc2, 0x64, 0xf1, 0xbb, 0xeb, 0xda, 0x69, 0x3f,
    0x15, 0xa9, 0x07, 0x3f, 0x77, 0xcc, 0x97, 0x3f, 0x54, 0xb1,
    0xd9, 0xbe, 0x1e, 0x50, 0x15, 0xbf, 0xeb, 0x4f, 0x1c, 0x3f,
    0x0f, 0x01, 0x39, 0x3d, 0x39, 0xef, 0x48, 0x3f, 0x8d, 0x05,
    0x45, 0x3f, 0xaf, 0x04, 0x07, 0xbc, 0xb1, 0x20, 0x39, 0xbf,
    0x4b, 0x02, 0x7a, 0xbd, 0x76, 0x92, 0xd8, 0xbf, 0x13, 0xe5,
    0x4a, 0x3f, 0x50, 0xb7, 0xf7, 0x3f, 0x58, 0xc2, 0xb4, 0xbf,
    0x12, 0x15, 0xc9, 0xbf, 0x7d, 0x7c, 0x4e, 0x3f, 0xc4, 0x58,
    0x92, 0x3f, 0x9a, 0x37, 0x46, 0x3f, 0xfa, 0xa3, 0xaa, 0xbf,
    0x87, 0xec, 0x25, 0x3d, 0xa6, 0xff, 0xd4, 0x3f, 0xbc, 0x4c,
    0xbc, 0xbf, 0x30, 0x78, 0xa5, 0x3e, 0x33, 0xe8, 0xa5, 0xbf,
    0x13, 0x99, 0x24, 0x3f, 0xf7, 0xe5, 0xa1, 0x3f, 0xd5, 0x5e,
    0xeb, 0x3e, 0xdd, 0x64, 0x52, 0x3e, 0xe3, 0x98, 0x13, 0xbf  };
  return AI_HANDLE_PTR(s_network_weights);
}
