/**
******************************************************************************
* @file    network_data.c
* @author  AST Embedded Analytics Research Platform
* @date    Thu Jul  8 22:50:28 2021
* @brief   AI Tool Automatic Code Generator for Embedded NN computing
******************************************************************************
* @attention
*
* Copyright (c) 2021 STMicroelectronics.
* All rights reserved.
*
* This software component is licensed by ST under Ultimate Liberty license
* SLA0044, the "License"; You may not use this file except in compliance with
* the License. You may obtain a copy of the License at:
*                             www.st.com/SLA0044
*
******************************************************************************
*/

#include "network_data.h"

ai_handle ai_network_data_weights_get(void)
{
  AI_ALIGNED(32)
  static const ai_u8 s_network_weights[1576] = {
    0x3c, 0x35, 0x3d, 0xbe, 0x31, 0x36, 0x6d, 0x3e, 0xe4, 0x0c,
    0x39, 0x3e, 0x32, 0x00, 0x20, 0xbe, 0x66, 0x3e, 0x94, 0x3e,
    0x92, 0x9a, 0xa8, 0x3e, 0xac, 0x3e, 0x71, 0xbe, 0x64, 0xa2,
    0xc5, 0x3e, 0x09, 0xe5, 0x53, 0x3e, 0x83, 0x86, 0x16, 0x3f,
    0x11, 0x49, 0x78, 0x3f, 0x47, 0x76, 0xf7, 0x3e, 0xab, 0x54,
    0xfb, 0x3c, 0x34, 0xaa, 0x0f, 0xbf, 0xe3, 0xd9, 0x9f, 0xbe,
    0x2e, 0x4a, 0x0a, 0x3d, 0x47, 0x07, 0x7a, 0xbf, 0x84, 0xb1,
    0x85, 0xbf, 0xaf, 0xdc, 0xfc, 0x3e, 0xbc, 0x72, 0xdc, 0xbe,
    0xb1, 0x05, 0xd7, 0x3e, 0x39, 0x4b, 0x1e, 0xbc, 0x60, 0xd6,
    0xb6, 0xbe, 0xb6, 0x21, 0xe9, 0xbe, 0xee, 0x55, 0x01, 0x3f,
    0xe2, 0x02, 0xb9, 0xbe, 0xa0, 0x75, 0xef, 0x3c, 0x3e, 0x09,
    0x21, 0xbf, 0xc1, 0x5f, 0x39, 0x3f, 0x60, 0x5f, 0xb0, 0x3d,
    0xe2, 0xba, 0x75, 0xbe, 0xb4, 0x8b, 0x1b, 0xbe, 0x83, 0xd7,
    0x04, 0x3e, 0x35, 0x5c, 0x27, 0x3e, 0x37, 0xdf, 0x73, 0xbf,
    0x2b, 0xf3, 0xfd, 0x3d, 0x3d, 0xf2, 0x41, 0xbf, 0x39, 0xa2,
    0x0e, 0x3f, 0x64, 0xf3, 0x1b, 0xbe, 0x42, 0xbc, 0xf3, 0xbe,
    0x85, 0x93, 0xac, 0x3e, 0x1a, 0x63, 0xfb, 0xbd, 0x9a, 0xb6,
    0xdd, 0x3e, 0x2a, 0xad, 0x7c, 0x3e, 0xf5, 0xb0, 0x3b, 0xbd,
    0xbf, 0x7d, 0x18, 0x3f, 0x22, 0x42, 0x20, 0xbf, 0x8b, 0x66,
    0x20, 0xbf, 0xda, 0xcf, 0x69, 0x3d, 0x7b, 0x4d, 0x5c, 0x3f,
    0x13, 0x14, 0x06, 0xbf, 0xf0, 0x5b, 0xef, 0x3d, 0x2b, 0x0f,
    0x22, 0x3f, 0x22, 0x62, 0x02, 0x3f, 0xfd, 0x7b, 0x47, 0x3f,
    0x66, 0xab, 0x0f, 0xbe, 0x99, 0x2b, 0x64, 0xbe, 0x43, 0xe4,
    0xeb, 0xbc, 0x18, 0x45, 0x3f, 0x3e, 0x35, 0x01, 0x0b, 0x3f,
    0x1c, 0x05, 0x9c, 0xbe, 0xea, 0xde, 0xd8, 0x3e, 0xaa, 0xe9,
    0x56, 0x3f, 0x93, 0xe3, 0xc6, 0x3e, 0xad, 0xae, 0x1e, 0x3c,
    0xaa, 0xe2, 0x33, 0xbe, 0x0b, 0x2e, 0xe8, 0x3d, 0x6d, 0xe7,
    0xab, 0x3e, 0x76, 0x7b, 0x18, 0xbd, 0x64, 0xf3, 0x71, 0x3e,
    0x67, 0x17, 0x87, 0x3e, 0xc2, 0x9a, 0x3b, 0xbc, 0x76, 0x51,
    0x70, 0x3d, 0x0f, 0x9f, 0xa8, 0xbe, 0xf6, 0x6e, 0x50, 0x3e,
    0xe8, 0x07, 0x1d, 0xbe, 0x6d, 0x84, 0x41, 0x3d, 0x60, 0xad,
    0x60, 0xbe, 0x1b, 0x48, 0xff, 0xbd, 0xda, 0x87, 0xb3, 0x3e,
    0xe2, 0x32, 0xb4, 0x3d, 0xc7, 0xfd, 0x1f, 0x40, 0xd9, 0x2a,
    0xb0, 0x3e, 0x73, 0xae, 0x61, 0x3f, 0xa2, 0x02, 0x00, 0x3f,
    0x1c, 0x50, 0xbc, 0x3f, 0x94, 0xcc, 0x52, 0x3f, 0xda, 0xf2,
    0x4b, 0xbe, 0x30, 0x84, 0x80, 0x3e, 0x7d, 0x6f, 0x00, 0x40,
    0x38, 0xeb, 0x13, 0x3e, 0x50, 0xe6, 0x06, 0x3f, 0x55, 0x5a,
    0x18, 0x3e, 0xf8, 0x67, 0xdc, 0x3f, 0xed, 0x51, 0x93, 0x3e,
    0x61, 0x41, 0x94, 0xbe, 0x8d, 0x9f, 0xf0, 0xbc, 0xed, 0xeb,
    0x0e, 0x40, 0x95, 0x30, 0xce, 0x3e, 0xd8, 0x82, 0x97, 0x3f,
    0xa9, 0x38, 0xcf, 0x3e, 0x31, 0xb3, 0xd8, 0x3f, 0x1b, 0x54,
    0x83, 0xbc, 0x12, 0x19, 0xb5, 0x3d, 0x0b, 0x65, 0x9d, 0x3e,
    0x3a, 0x79, 0x85, 0xbf, 0xc4, 0xc1, 0xc5, 0xbe, 0x4b, 0xe1,
    0xb8, 0xbe, 0x12, 0x5c, 0x16, 0xbf, 0x36, 0x61, 0x36, 0x3e,
    0xf8, 0x71, 0x8c, 0xbf, 0x01, 0x1f, 0xd0, 0x3e, 0x08, 0xc6,
    0xcb, 0x3e, 0xdb, 0x5a, 0xb5, 0xbf, 0x69, 0x11, 0xee, 0xbd,
    0x94, 0xde, 0xb9, 0xbe, 0x87, 0xda, 0xf0, 0xbe, 0x11, 0x71,
    0x8c, 0x3e, 0x94, 0xd9, 0x4a, 0xbf, 0x52, 0x11, 0x7d, 0x3e,
    0x56, 0x63, 0xcb, 0x3c, 0xb2, 0x85, 0x82, 0xbf, 0xdc, 0x15,
    0xb8, 0xbd, 0xc8, 0x4f, 0x52, 0x3e, 0x09, 0x5c, 0x28, 0xbf,
    0xe3, 0x10, 0x01, 0x3f, 0x2e, 0xcc, 0x58, 0xbf, 0x92, 0x54,
    0xb9, 0x3d, 0x3b, 0xef, 0x97, 0x3e, 0xd3, 0x0f, 0x69, 0xbf,
    0xdb, 0xac, 0x95, 0x3a, 0xed, 0x18, 0xcb, 0xbe, 0x2c, 0x50,
    0xff, 0xbe, 0x63, 0x4d, 0xf0, 0x3d, 0xd8, 0x67, 0x4e, 0xbf,
    0x65, 0x28, 0x92, 0x3e, 0x23, 0x62, 0x3e, 0xbc, 0xde, 0x45,
    0x99, 0xbf, 0xd3, 0xa9, 0x14, 0xbe, 0x04, 0x1a, 0x2d, 0xbe,
    0x96, 0x20, 0x39, 0xbe, 0xce, 0xad, 0x13, 0x3e, 0xa8, 0x04,
    0xfe, 0xbe, 0xff, 0x63, 0x9c, 0x3e, 0xc2, 0x41, 0xa2, 0x3e,
    0x18, 0x57, 0x75, 0xbf, 0x40, 0x9d, 0xda, 0xbe, 0xde, 0x6a,
    0x73, 0x3e, 0x24, 0x91, 0x62, 0xbf, 0xb1, 0xa3, 0xd2, 0x3e,
    0x64, 0x88, 0x61, 0xbf, 0x12, 0x8a, 0x84, 0x3e, 0x76, 0x64,
    0x6b, 0xbe, 0xab, 0x51, 0x23, 0x40, 0x3b, 0x6d, 0xf5, 0x3e,
    0x78, 0xaa, 0x9e, 0x3f, 0x03, 0x83, 0xf3, 0x3e, 0xf7, 0x2f,
    0xd4, 0x3f, 0x40, 0xa4, 0x98, 0xbd, 0xb1, 0xb2, 0xdb, 0xbc,
    0x77, 0x8c, 0xd4, 0xbe, 0x8c, 0x34, 0x0b, 0x40, 0x18, 0x3e,
    0xeb, 0x3e, 0x37, 0xd8, 0x50, 0x3f, 0xae, 0x8e, 0xdf, 0x3e,
    0xb7, 0xde, 0x66, 0x3f, 0x4a, 0x4c, 0x25, 0x3f, 0x1e, 0xab,
    0x96, 0x3d, 0xe3, 0x43, 0xa8, 0x3e, 0xec, 0x7b, 0x21, 0x40,
    0xa4, 0x02, 0x11, 0xbe, 0xb0, 0x41, 0x7a, 0x3f, 0x83, 0x7b,
    0x1a, 0x3f, 0x68, 0x24, 0xba, 0x3f, 0x36, 0x6f, 0x6e, 0x3f,
    0x02, 0x7d, 0xb2, 0xbe, 0x1e, 0xae, 0xcd, 0xbe, 0x86, 0x59,
    0xf3, 0x3e, 0x37, 0x3a, 0xe6, 0x3e, 0x97, 0xd3, 0xbe, 0xbe,
    0xd0, 0x66, 0xc6, 0xbf, 0xac, 0x05, 0x91, 0x3e, 0x87, 0xa7,
    0x0e, 0x3e, 0x46, 0x20, 0x7e, 0xbf, 0x0a, 0x18, 0x81, 0xbf,
    0x74, 0xc7, 0xc4, 0x3e, 0x11, 0xe9, 0x9a, 0x3e, 0xbc, 0xa9,
    0xe5, 0x3e, 0x9d, 0x3a, 0xc3, 0xbe, 0xde, 0x4d, 0x4e, 0x3e,
    0x8c, 0xd1, 0xf7, 0xbd, 0x91, 0x69, 0x04, 0x3f, 0x74, 0x3c,
    0xb4, 0xbf, 0x3e, 0xa0, 0x9c, 0x3e, 0xdf, 0xf5, 0x0f, 0x3e,
    0x88, 0x33, 0x62, 0xbf, 0x80, 0xf9, 0x85, 0x3f, 0x9f, 0x85,
    0x23, 0xbd, 0x86, 0x1d, 0x55, 0x3d, 0x1d, 0x0c, 0x29, 0x3f,
    0x25, 0x09, 0x97, 0x3f, 0xe5, 0x70, 0x66, 0x3d, 0xfd, 0xc0,
    0x51, 0xbc, 0xa0, 0x0e, 0x5a, 0x3f, 0x9b, 0x23, 0xb3, 0x3f,
    0x5b, 0x3f, 0x8e, 0x3d, 0x39, 0x14, 0xf2, 0x3d, 0x85, 0xb1,
    0xb0, 0x3f, 0x56, 0xa8, 0x70, 0x3f, 0x80, 0x1c, 0x24, 0x3e,
    0x97, 0x62, 0xc7, 0x3d, 0x65, 0xa3, 0x7a, 0x3f, 0xd9, 0x7d,
    0xf5, 0x3c, 0xba, 0xbc, 0x9a, 0x3f, 0x06, 0x0b, 0xbb, 0x3f,
    0xf3, 0xaa, 0xd9, 0x3d, 0xcc, 0x5a, 0x56, 0x38, 0xe3, 0xdc,
    0x7a, 0x3f, 0x9a, 0x75, 0x07, 0x3f, 0x4c, 0x5b, 0xcc, 0x3d,
    0xfc, 0xc4, 0xce, 0xbb, 0x27, 0x29, 0x48, 0x3f, 0xdf, 0xad,
    0x25, 0x3f, 0xc9, 0xb2, 0xf4, 0x3d, 0x74, 0x45, 0xb7, 0x3d,
    0x97, 0x93, 0x16, 0x3f, 0x1b, 0xbf, 0x4f, 0x3f, 0x6f, 0xa6,
    0x0d, 0x3d, 0x5b, 0xd0, 0x22, 0xbe, 0x26, 0x82, 0xa9, 0x3d,
    0xe7, 0x28, 0xbc, 0xbd, 0x7b, 0x7c, 0x32, 0xbd, 0x70, 0x99,
    0x8a, 0x3c, 0x53, 0x0f, 0xa9, 0x3d, 0x13, 0xb4, 0xf5, 0x3e,
    0xc4, 0xd2, 0xa1, 0x3d, 0x53, 0xea, 0xb9, 0xbd, 0x03, 0x88,
    0x41, 0x3e, 0xdc, 0xaf, 0xe0, 0x3e, 0xf1, 0x5f, 0x38, 0x3e,
    0x66, 0x9a, 0x75, 0xbe, 0x00, 0x05, 0xe4, 0x3e, 0x37, 0x26,
    0x20, 0x3e, 0x7d, 0xf6, 0x10, 0x3d, 0x80, 0x02, 0x8f, 0x3e,
    0xf7, 0x0d, 0x14, 0xc0, 0x3f, 0xac, 0x2c, 0xc0, 0xc9, 0xea,
    0xec, 0x3e, 0x3a, 0xc6, 0xc3, 0x3e, 0x61, 0x7e, 0x2a, 0xc0,
    0xcc, 0x2d, 0x2a, 0xc0, 0xbd, 0x5a, 0x82, 0x3e, 0x58, 0xdd,
    0xe3, 0x3d, 0xbe, 0xb9, 0xec, 0xbf, 0xf4, 0xd2, 0x05, 0xc0,
    0xc6, 0x46, 0xb6, 0x3e, 0x87, 0xd7, 0x7d, 0x3e, 0x51, 0x79,
    0x1a, 0xc0, 0xd7, 0x72, 0x2e, 0xc0, 0xb9, 0x2b, 0xe5, 0x3e,
    0x8c, 0x0a, 0x89, 0x3f, 0x60, 0x07, 0x57, 0x3e, 0xf6, 0x69,
    0x51, 0x3e, 0x69, 0xb9, 0x55, 0x3f, 0x06, 0x57, 0x06, 0x3f,
    0xe6, 0x3e, 0x7c, 0xbd, 0xd4, 0x20, 0xfc, 0xbc, 0x32, 0x17,
    0x3b, 0x3f, 0x44, 0xab, 0x77, 0x3e, 0xfd, 0x3e, 0x4e, 0x3e,
    0x1d, 0x6c, 0x81, 0xba, 0xc0, 0x4f, 0x72, 0x3f, 0xe5, 0x2a,
    0x76, 0x3f, 0xef, 0x07, 0x85, 0x3e, 0xd0, 0x99, 0xa6, 0x3d,
    0xfe, 0xe7, 0x45, 0x3f, 0x34, 0xc2, 0x34, 0xc0, 0xb2, 0x7c,
    0x6e, 0x3d, 0x94, 0xd2, 0x76, 0x3e, 0xa4, 0x57, 0x17, 0xc0,
    0x73, 0xc5, 0x10, 0xc0, 0xf7, 0x30, 0xb4, 0xbd, 0x29, 0x9e,
    0x64, 0xbd, 0x98, 0x52, 0x21, 0xc0, 0xc2, 0x3a, 0x29, 0xc0,
    0x17, 0x71, 0x7e, 0x3e, 0x19, 0xfd, 0x63, 0x3e, 0x8a, 0xe4,
    0x41, 0xc0, 0x64, 0x56, 0x32, 0xc0, 0x69, 0x01, 0xb9, 0x3e,
    0xb8, 0xe0, 0xc0, 0x3d, 0xf2, 0x8a, 0x34, 0xc0, 0xeb, 0x67,
    0x1e, 0xbf, 0x55, 0x6a, 0x51, 0x3f, 0x63, 0x22, 0xac, 0x3f,
    0xdd, 0xb4, 0x38, 0x3e, 0xe8, 0x87, 0x74, 0x3e, 0x15, 0x40,
    0x9a, 0x3f, 0x67, 0x28, 0x9f, 0x3f, 0x85, 0x94, 0x33, 0xbd,
    0x76, 0x69, 0xf6, 0xbe, 0x7a, 0x45, 0x6f, 0x3f, 0x4a, 0x20,
    0x8e, 0x3e, 0xe5, 0xf3, 0x97, 0xbd, 0x26, 0x51, 0x17, 0xbf,
    0x22, 0xd3, 0x9a, 0x3f, 0x10, 0xe6, 0x9d, 0x3f, 0x6e, 0x42,
    0x55, 0x3e, 0x4c, 0x51, 0x6a, 0xc0, 0x55, 0xc2, 0xc8, 0x3d,
    0xb7, 0xfe, 0xaa, 0x3c, 0xb6, 0x68, 0x31, 0xc0, 0x95, 0x59,
    0x68, 0xc0, 0xdd, 0x32, 0xf7, 0x3d, 0x27, 0x6c, 0x93, 0x3d,
    0x8d, 0xa4, 0x36, 0xc0, 0x2f, 0x8e, 0x5d, 0xc0, 0xcf, 0x99,
    0x55, 0xbc, 0xd6, 0x6f, 0x84, 0xbb, 0x9e, 0x3e, 0x6f, 0xc0,
    0x70, 0x00, 0x6a, 0xc0, 0xe7, 0xba, 0x86, 0x3b, 0x89, 0x2f,
    0xaf, 0x3d, 0x21, 0xc4, 0x52, 0xc0, 0xef, 0x5f, 0xab, 0xbd,
    0x69, 0xfa, 0x6c, 0x3f, 0x53, 0x08, 0x1f, 0x3f, 0x24, 0x7c,
    0xe4, 0xbe, 0xe6, 0x4c, 0x24, 0xbf, 0x67, 0x8a, 0xa8, 0x3e,
    0x5d, 0x3d, 0x00, 0x3f, 0xc3, 0xc0, 0xe0, 0xbe, 0x28, 0x21,
    0xec, 0xbc, 0x80, 0x35, 0x85, 0xbd, 0xe1, 0x29, 0x30, 0x3f,
    0xe9, 0xe0, 0xcb, 0xbe, 0x4b, 0x53, 0x25, 0xbd, 0x60, 0x92,
    0x7d, 0x3e, 0xe3, 0x78, 0x83, 0x3f, 0x91, 0xd9, 0xed, 0xbe,
    0xe4, 0xa1, 0xb4, 0x3e, 0x35, 0xaf, 0x2e, 0x3e, 0xc2, 0x4b,
    0xe9, 0x3e, 0x7c, 0xb9, 0xe1, 0x3f, 0x12, 0xa1, 0x82, 0x3f,
    0x89, 0xa3, 0x60, 0x3e, 0x26, 0x04, 0xce, 0x3e, 0x1f, 0x82,
    0xed, 0x3e, 0xd8, 0xbc, 0x88, 0x3e, 0xf5, 0xed, 0x7d, 0x3f,
    0xf3, 0x49, 0x6b, 0x3f, 0x79, 0x44, 0xe0, 0xbf, 0x7d, 0x88,
    0xa5, 0x3e, 0x01, 0x9a, 0xbc, 0x3e, 0xd6, 0x58, 0x1c, 0xc0,
    0x4e, 0x95, 0x5c, 0xbf, 0xef, 0x8b, 0x02, 0x40, 0xe1, 0x05,
    0x9b, 0x3e, 0x85, 0xfe, 0x2d, 0x40, 0x8f, 0x8f, 0x35, 0x3f,
    0x0a, 0xe6, 0x07, 0xbf, 0x57, 0x45, 0xd1, 0x3e, 0xa5, 0x4b,
    0x09, 0x3f, 0xcb, 0x0e, 0x26, 0x3f, 0x6d, 0x28, 0x20, 0xc0,
    0xd0, 0xe9, 0x1b, 0x3f, 0xf8, 0x15, 0xec, 0xbf, 0xf5, 0x46,
    0xe7, 0x3e, 0x40, 0x97, 0x41, 0xc0, 0xf6, 0xaa, 0xba, 0x3e,
    0xb6, 0x22, 0xfd, 0x3f, 0xc8, 0xf4, 0x2c, 0x3f, 0x63, 0x9c,
    0x56, 0xbf, 0x0d, 0xf2, 0xd3, 0xbf, 0xbb, 0x34, 0xa4, 0x3e,
    0x88, 0x55, 0x36, 0x3e, 0xd4, 0x8a, 0xae, 0x3f, 0x89, 0x0c,
    0xce, 0x3e, 0x9d, 0xd1, 0xdf, 0x3f, 0x73, 0x76, 0x61, 0x3f,
    0x04, 0x14, 0xbe, 0xbf, 0xad, 0x17, 0x8e, 0xbd, 0xfe, 0x12,
    0x0a, 0xbf, 0x4c, 0xdd, 0xb7, 0x3f, 0xd6, 0x32, 0x50, 0x3f,
    0xee, 0x1a, 0x83, 0xbe, 0xed, 0xf5, 0xd8, 0xbf, 0xb6,
    0x19, 0x51, 0xc0, 0x88, 0xbb, 0xc4, 0xbf, 0xd8, 0x81,
    0x57, 0xc0, 0x60, 0x97, 0xc9, 0xbd, 0x89, 0x6e, 0x8b,
    0x3e, 0xd4, 0x22, 0xb0, 0xbf, 0xed, 0x22, 0xa3, 0x3f  };
  return AI_HANDLE_PTR(s_network_weights);
}
